/**
 ******************************************************************************
 * @file    network_data_params.c
 * @author  AST Embedded Analytics Research Platform
 * @date    2025-12-13T16:16:45-0600
 * @brief   AI Tool Automatic Code Generator for Embedded NN computing
 ******************************************************************************
 * Copyright (c) 2025 STMicroelectronics.
 * All rights reserved.
 *
 * This software is licensed under terms that can be found in the LICENSE file
 * in the root directory of this software component.
 * If no LICENSE file comes with this software, it is provided AS-IS.
 ******************************************************************************
 */

#include "network_data_params.h"

/**  Activations Section  ****************************************************/
ai_handle g_network_activations_table[1 + 2] = {
    AI_HANDLE_PTR(AI_MAGIC_MARKER),
    AI_HANDLE_PTR(NULL),
    AI_HANDLE_PTR(AI_MAGIC_MARKER),
};

/**  Weights Section  ********************************************************/
AI_ALIGNED(32)
const ai_u64 s_network_weights_array_u64[658] = {
    0xbe179b28bd38e099U, 0x3e9591983ec40512U, 0x3d29eb23bd1b139aU, 0x3e4feaf9bee9b9cbU,
    0xbec509e83ebf74c5U, 0x3ba78f19bed4309aU, 0x3c9d8c8cbe692111U, 0x3f1879d23e83480dU,
    0xbede29e8bc4e4217U, 0x3e639b223f07e2b2U, 0x3e445d9dbe38fbb9U, 0xbf1842fdbd118df8U,
    0x3e7e2b4fbef81f66U, 0x3dc4a190bea5c64fU, 0xbe6ed60abe64701bU, 0x3d1f4e7b3e088c3dU,
    0x3e5aec8abe444161U, 0x3f06ed083eeb6984U, 0x3e916184be0fa8baU, 0x3c86d858beaa88cdU,
    0x3eabeed93ea3df5dU, 0x3ea85bef3ec2df84U, 0xbee4906abe3e0c13U, 0x3ecf3db33e98c267U,
    0x3e1415e2bd9047abU, 0x3e622bfb3ebf8342U, 0xbd63a4163ee487dfU, 0x3e5991c33f01b5e6U,
    0x3e6c1db1bcdcaa46U, 0x3d0087cbbec5fb84U, 0x3ef72a35be24cf2cU, 0xbd103bf7bd2fda5fU,
    0x3e77904abdc27519U, 0xbedfa1c83e5188bfU, 0xbd5ce0a4be8ca935U, 0xbef407c5be48d034U,
    0xbdf35038be1d4488U, 0x3ef7ff033eed8cf6U, 0x3e621ab9be891715U, 0xbe5f86223e8c20afU,
    0xbe21e8d5bd4ae47cU, 0xbebaf7b7bedc8404U, 0x3e1a0ac63e8a9dc7U, 0x3d381dff3e2f78c5U,
    0xbea9366bbe19f2e9U, 0x3cf891e93ef8688eU, 0x3d246ff03e0afe0bU, 0xbeb77f82be7db641U,
    0x3eb99df7be6f58a5U, 0x3e7f9d26be9031e9U, 0xbea0e5ce3eb17484U, 0x3f18fcdf3e9b7371U,
    0xbe9a1b0e3ea881deU, 0x3f0c352d3d8a5551U, 0xbf0064a23edb15a4U, 0x3e937b2a3d98981fU,
    0x3c50b42abe3600deU, 0xbe66001fbeb4ebc4U, 0x3e4b68f6be5ec9dfU, 0xbe2ec0f0be7780f6U,
    0xbddd9261bf006b0fU, 0xbea3abebbe4657f5U, 0x3e40a13abe3e6540U, 0x3d82d3e3be238710U,
    0x3d617a33be817dc4U, 0xbd1554e73e5e1660U, 0x3d4ab595bcb35ff5U, 0x3e655ba13d47baacU,
    0x3c8c917ebe098171U, 0x3c91b4f5be11897bU, 0xbe5ce7b8bde20c8bU, 0x3ebe8eca3da0e654U,
    0x3e2b8237bd0466c4U, 0x3ea201c5be86931eU, 0x3ec69f293e1c27d2U, 0x3c5015ab3e909fbbU,
    0xbd9192b53de26bbfU, 0x3e9494fd3e80d254U, 0x3d39157ebd59a663U, 0x3e41fdb53e4bb0eaU,
    0xbd3bd968be6e80daU, 0x3e3dbc123e7db826U, 0xbe8298db3e63a654U, 0x3e44f414be1c9ddbU,
    0x3dbb8dbabdb1cd99U, 0x3dbae3c53eb01a1bU, 0xbdb14842bbcae7a1U, 0x3ef91b663df4499cU,
    0xbdf9e9c9be8bd8b0U, 0x3ea1b61e3dea1ef4U, 0x3e9f3b67be50230eU, 0xbedf25e23ee056f6U,
    0xbe4dccdf3d97868eU, 0x3ec64b0e3e17daf0U, 0xbe9f3dab3e33b4d7U, 0x3e8445483d9030bfU,
    0x3e763ebf3e0beea4U, 0x3ed44721bda5bc48U, 0x3e5a59a2bdc8b38bU, 0x3ebdf7ddbccaf663U,
    0xbe8106173ed19eccU, 0x3e8ccb5cbd64e99fU, 0x3e27952cbb29e226U, 0xbe3edf08bbabf728U,
    0xbe1b9eb53c4d1e88U, 0xbf1655633c2ea125U, 0x3dc55cc2bf046159U, 0xbc4ef6b7be1c070fU,
    0x3d02f0903dd01ebaU, 0x3e9335df3d8dac8cU, 0x3d266458be021788U, 0xbe80ac003e3e2a08U,
    0xbdba46653f24c229U, 0x3ebb7be5bd915548U, 0x3d3edcd1bcb4f625U, 0x3d6e40c93ef6f78bU,
    0x3e5b4620bd67bf0dU, 0x3d9fb7c13e9839ffU, 0x3ead3f723e09b3a2U, 0xbeadbbad3d594b03U,
    0x3d414a543e56df18U, 0xbeb59d143e7f062dU, 0xbdccb49e3d09ab55U, 0x3e5c51063d1d414aU,
    0x3e4549a53e0a1de1U, 0x3da9de103c984927U, 0x3ec314683e2b28b5U, 0xbe835cec3e48ce8eU,
    0x3db1a3943f222f1aU, 0xbc0eac99bea8518dU, 0x3e48ea1b3eeae8c3U, 0xbe6d88f6be2bfb42U,
    0x3e864e923ea0c272U, 0x3ebee9b53e8ae323U, 0x3e50d165bcf979a7U, 0xbeb3a383bea08650U,
    0x3ba489a8bdbab4ebU, 0xbe8ee2583e8e6a16U, 0xbc62e79abebedce0U, 0xbe014281bcbaf7e8U,
    0xbdbed86dbcb1955aU, 0x3e1e11ca3e81e9b8U, 0x3db65acf3e00264dU, 0x3e095f233d97576eU,
    0x3e581258bf04e880U, 0xbe7c06cd3e8fbba6U, 0x3eae1e623e05f60eU, 0x3e22e2873ccc6fc8U,
    0x3dc28a05beeb118bU, 0xbdf010c03e7796deU, 0xbeb3e6a5beda7f5dU, 0x3c5b30433cf896c9U,
    0x3eb7c9903c26c2b1U, 0xbd06506dbeb2c681U, 0x3ead6e15bda28480U, 0x3df60da5be6be466U,
    0xbe49a6dd3e6f8d5cU, 0x3e895427bc80a06dU, 0x3e4772be3df32f1fU, 0x3e87d40f3ec3b64aU,
    0xbeb7a6b33ed7ed6cU, 0x3edece3f3eb80d23U, 0xbe9ffb433e9741cfU, 0x3eb7bb61be595142U,
    0xbda30bd13e1a19efU, 0x3e9c7de43d0de2ecU, 0x3acd8da23ea8460eU, 0x3e597b04bdd16ff8U,
    0xbd87c0543e5da5b8U, 0x3e30e094be28c06cU, 0x3e9864d8beb587f7U, 0x3d4574e43ed83ae4U,
    0x3e2f3c803d0fa99bU, 0x3eabc4dd3dbbfb0dU, 0x3e78ddc9bd441becU, 0xbdb724bf3e29b8f8U,
    0xbea689e73d23b0e5U, 0x3ecd3932bdeb01b8U, 0xbdbb1f6b3ed2ac43U, 0x3e932d923e080177U,
    0xbd01fb6ebd76326fU, 0xbe1701343d104f3fU, 0x3e960b853e2e3111U, 0xbdb19b5ebe8eae7eU,
    0x3e311bbabe7a1f59U, 0x3d8c329ebe60aa8bU, 0xbe0838123d8a2ab4U, 0x3d5bd18d3ed2eca7U,
    0x3e9a8df83e242aa3U, 0x3e89d1033ee3497bU, 0xbe348386be7d247bU, 0xbe830edb3e1d1fa1U,
    0x3eb94c713e48f261U, 0xbe741ea0bd040f58U, 0x3eaaa9983d5273a7U, 0xbeab6e4ebdfd8d07U,
    0x3eb0c91abcb4b009U, 0x3c7957a03eed7e99U, 0x3e9ecd013d55439dU, 0xbe177e6d3ed26bd5U,
    0x3e3d99cebd83ccacU, 0x3cde5dba3e7dcb88U, 0x3e191c703ddd121cU, 0x3e83d65fbe35aab2U,
    0x3d82d4803e0a53d6U, 0x3e1a1977be0f39c9U, 0x3d159fec3bf25859U, 0xbd2ac64f3e88bd6aU,
    0xbeb3010cbf1baa49U, 0xbe1822bc3e6b9a78U, 0xbe30da36be761615U, 0xbe0681443e69e7bbU,
    0xbd255400bf2c5adbU, 0xbe79a447bdacbd50U, 0x3dbe7fc4beb3a95cU, 0x3d6372febdccc4bbU,
    0xbe8bcff63e65609bU, 0xbd163887bf02b1f2U, 0xbd823df7bc26952bU, 0x3e75f814bdca5079U,
    0x3e0b0694be591e0aU, 0x3eb768fb3e93050eU, 0x3b9516603dcbe8ddU, 0x3de0d92a3e01dbf8U,
    0x3da2307ebf1eb5b7U, 0x3d3d6da53e3414f5U, 0xbee8d628be9aa245U, 0x3e47fa8bbe331945U,
    0x3ec715563e1792a7U, 0x3e77bd9d3d2fd5ebU, 0xbe003a8fbe226843U, 0x3eb04897be00f81cU,
    0x3e1005aebc9d33b5U, 0x3eabf369be44fe6dU, 0x3ec9958a3d9fd548U, 0xbe8ec17e3e6e91ddU,
    0xbe83cbc73e51e568U, 0x3d667875bd8f3472U, 0xbe818fc4be2ac602U, 0x3cd5e3da3e43d5e3U,
    0xbec9b9123e54e1feU, 0x3ed6c235be9a75faU, 0xbe3d5beabe709134U, 0x3ddf28febca9f8d1U,
    0x3e1488303e509b72U, 0x3d99f424beddefddU, 0xbe24dca5bc7f0f56U, 0x3d1ef02f3da1d5feU,
    0x3da005893e55db65U, 0x3e0b7f92bd0193b0U, 0xbe1df0d1be5cec95U, 0xbe4d0a853e4b0407U,
    0xbe2b59a6beb27379U, 0x3e0a42d3bd79fe3bU, 0x3e3d6d1dbdb7e788U, 0x3e86300a3e673fd8U,
    0xbe4312b43e85b35dU, 0x3eb3e4683da16135U, 0x3e7fc8453e852c8dU, 0xbe570e1cbd3e1885U,
    0x3e69b94d3ea9b1caU, 0x3e7755b83e05a919U, 0x3ed2901ebde30e93U, 0xbe789b38bdf48aa6U,
    0xbe3d093b3e2c10d1U, 0xbef9c4e13eba4795U, 0xbdf2790bbef61768U, 0x3dfdb4ddbe024844U,
    0x3ec3559ebe175781U, 0x3e3f96a43e1bf028U, 0x3e8586a33c88fc16U, 0x3c9382343ebeb19dU,
    0xbe2282c93e89e433U, 0xbe9c74a23e3d3c14U, 0x3d157dc0be3a465cU, 0x3dbde15cbe64b24fU,
    0xbe3e826f3e288a4aU, 0xbe94b267bd757ff0U, 0xbd8540523e52cdcaU, 0x3e5c9df6bdba6032U,
    0xbe8865f5be8a64c0U, 0x3d8c03ec3d9efb64U, 0xbd9f4d063e301b7eU, 0x3d75ae68bdc13a1cU,
    0xbe8c6120be871eb6U, 0x3e6f0742be069615U, 0xbe1b7840be274ca9U, 0xbd105868be98fe9eU,
    0x3eabd8873f026571U, 0xbe2b83673e027e11U, 0x3ece058b3e1113f5U, 0x3e15717c3dfe860bU,
    0x3a6ab7b03e5ec416U, 0x3e7c683a3ec87587U, 0x3ec450f5be49fb49U, 0xbe50c8f73e1c74e4U,
    0xbde523c23e12a739U, 0xbd4549293efdece5U, 0x3df0e0313c0493dfU, 0xbe16cc843d3832efU,
    0x3eaafdb7be5812a9U, 0xbe17756b3e8007fdU, 0x3eaa940b3eba387fU, 0xbea1ec233e84e52fU,
    0xbe9dd7683ebbf86fU, 0x3dc526f3bea65b6fU, 0x3e6e99b93eca05f9U, 0x3e40e37a3e86ee95U,
    0xbe60da4f3d227f24U, 0x3e8eba803ec199ebU, 0x3eb7d9c33cc95e76U, 0xbe237e6bbe2e8491U,
    0xbdbddb6fbe7665a3U, 0x3d85bb2cbcfd576eU, 0xbe851f8f3c0436c8U, 0x3e04de0fbb37a0ceU,
    0x3e8fd441bdd7c2e5U, 0x3d68f01cbe19543fU, 0xbda06992be91f554U, 0xbced35ffbcfd0fe4U,
    0x3e00efbcbf17985bU, 0xbebe73e13ecadee1U, 0xbe37b2c73e3b78ebU, 0x3d7913fcbe9d657bU,
    0x3e0c13b0bee2a23aU, 0xbdc6c3bcbeb7a1ddU, 0x3e51699ebe79a4ffU, 0xbe7277bebde1ffe4U,
    0x3e0957533e6344aeU, 0x3dce86e6be327749U, 0x3cce3ddebd284e32U, 0x3e6fcff63e7600eaU,
    0x3e5829e8bd83f103U, 0x3eb3676e3e04de1aU, 0xbdf2d0f13df596a2U, 0xbde996a0bd63b40fU,
    0x3eac90edbe93c26fU, 0xbe9304c5be8cc333U, 0x3dbcc5573d6391b4U, 0xbe06d7463e6ce61cU,
    0xbcf6edddbe50ca99U, 0xbe14aa4a3df3b3aaU, 0x3c0c01093d20a480U, 0x3eb149e63e2a9228U,
    0x3d8401e0bc9d6a6cU, 0x3e991519beb18d7bU, 0xbec87a5c3cdfdaa7U, 0x3e7c963dbd527227U,
    0xbdda6f6d3e3fb1c6U, 0xbc8496833d7c8b63U, 0x3e7d27a8be40457eU, 0x3ec630f23eafe7b7U,
    0x3e6090e4bee4632cU, 0xbc68ae4c3ea5fe13U, 0x3e370ec9bc6ee148U, 0x3e312de43e0e8194U,
    0x3eba71cf3dcf807aU, 0xbd8fc67ebe1cbfccU, 0x3da9f499be8f9bf4U, 0x3e3fe37c3eb614bdU,
    0x3e346f5a3e601be8U, 0xbd51eeec3dc55f79U, 0x3d78eec53e3ccc95U, 0xbdf4a1c5bdf6b9fdU,
    0x3e858dc23eca65f3U, 0xbe9b4438bd223de0U, 0x3e4802113e96d0baU, 0xbdfc5fa03e961b94U,
    0xbe22cd33be98154fU, 0xbcae5a79ba8ea303U, 0x3e78d79b3e281c86U, 0xbe25e74b3dd71aa1U,
    0x3dbeeeb3bce28deeU, 0xbec9c412be89f4a8U, 0x3e079b0abe7071a0U, 0x3eabbd0b3e9f6227U,
    0x3ec17da13e5ca5f0U, 0x3e2639cf3d21e650U, 0xbe89d03d3b07768cU, 0x3d7d8d543d226e40U,
    0x3d3dd8d93e9fb4a7U, 0xbd711bd4bb92677dU, 0xbd76368c3e5f0266U, 0x3e6831343eb9166dU,
    0x3dc259fe3e67c8d7U, 0x3e7f52bebcdcce01U, 0xbe11d656bd11f81eU, 0x3e8a9aa63d9e98f1U,
    0x3e148c78be149e09U, 0x3e0191213e967bf1U, 0x3ed553223e7833c5U, 0x3d34c3a6be8c4843U,
    0xbe3d74c63d881dcdU, 0xbea420b73dae141bU, 0xbe1eba35be880c58U, 0x3e31ea92bd706086U,
    0x3eb0c9083e514653U, 0x3d8fe94d3e87b520U, 0x3db0a48b3d2c8ff2U, 0xbe0dd6cd3d0eebfbU,
    0xbdace3e7bef920a3U, 0xbe67c6193eda1e0dU, 0xbe4d97683dbbc3d6U, 0x3e6c497f3e520920U,
    0xbd09ae5dbdc12e21U, 0x3da0b6593e237fbdU, 0xbc32f753beb39a5eU, 0x3f10fa953e385f96U,
    0xbde1b6d33e9638c2U, 0x3de96e83bea21064U, 0x3e2f53343eac7687U, 0xbd2a3230bdc29ca2U,
    0x3db12c7e3ee9536aU, 0x3e433ddabe701269U, 0x3e2b881d3cd1684eU, 0x3edd53c3be00db7dU,
    0x3ea5a3b8bedc9c3aU, 0x3db5574a3d962dddU, 0xbd50ec483e199eacU, 0xbde76bd43e8b3148U,
    0xbde690c7beb85bfaU, 0x3d985589be26d4a0U, 0xbe444d99be465544U, 0x3ec5554a3e61a4caU,
    0x3e85d1ccbe2866c6U, 0x3d89d427bf14b86bU, 0x3e0ac1c43ebe21e7U, 0x3e41768abd19b46dU,
    0x3d16a44c3eba53b4U, 0x3e8e25f03e1eecf6U, 0x3e8ada80be510fc6U, 0x3eb3316ebd2b13d0U,
    0x3ed98f043ed032f3U, 0x3eb3a7ecbea54b10U, 0xbd8121393df258ceU, 0xbe26255f3ed3e758U,
    0x3db819f2bd9b550cU, 0xbcbf186f3dd98335U, 0x3e5e17843ea70495U, 0x3e2f94a23dc8211dU,
    0xbd0622f03e327c1bU, 0xbe57beef3d950ab4U, 0xbcc2f370be0803c7U, 0x3e455f603dea9712U,
    0x3db275fe3e105d6aU, 0x3d9495473e162626U, 0x3eb49def3edca9a2U, 0xbe02780f3ea11141U,
    0xbc18408ebd95bdb2U, 0xbe390bc83ec63236U, 0xbf0b514ebdc0173eU, 0x3ee34f0dbdffb74dU,
    0xbedd55abbebd9192U, 0x3db89140bd623e16U, 0xbe088376be6af1dcU, 0x3ef2ca92be7e9a28U,
    0x3c2b826fbf0ffa20U, 0x3e0f1052bd78f6d8U, 0x3ded01f83ed1d05bU, 0xbea441113e75e982U,
    0xbe48eddd3ed807aeU, 0xbc9010753e0afa21U, 0xbf18ab6cbcc9c399U, 0x3e15e6fc3e88ade2U,
    0xbea450373e1a213aU, 0x3ec1ea97bea0d5d7U, 0x3cfe043d3b53cc3cU, 0x3e49660a3da1b009U,
    0x3e064e883e05a45cU, 0x3e03f0b03e3e9871U, 0x3e827cd63e237297U, 0xbd90d4443dc177d5U,
    0x3cea9096bea7be8bU, 0xbed163ca3f01efebU, 0xbe772a0abe1553acU, 0x3e59164c3e9b7959U,
    0x3e4f8595bee26ff0U, 0x3de035b83d2cdb33U, 0xb824ccfbbe9f3df9U, 0xbdd2d5f83e3e8b3eU,
    0xbe928855bebb3f2dU, 0x3d50b44e3e5017c8U, 0x3de5715bbd86e9a4U, 0x3df397eabeae3878U,
    0x3e53d575bea65f59U, 0x3eb72c21bdfded46U, 0x3e06b171bdbe56ccU, 0x3e8c7707be3a7228U,
    0x3e1b3a773d76e101U, 0x3d89d2e4be86871cU, 0xbd7d3facbe730226U, 0x3e2baad7bb9164a7U,
    0x3ddd81613e7ea657U, 0x3eaf6ff93e85b0a7U, 0xbe82ec1fbe44d5d6U, 0xbe850f633e2f8046U,
    0xbdc3a8c8bebdf785U, 0xbe15fb663e97aed2U, 0xbed43a323db4d23cU, 0x3e8cd7843dcd8748U,
    0xbdbe0e813e4158d8U, 0xbe3984ba3d9758cfU, 0xbe9c56a23e301e80U, 0x3e61f27bbe148c13U,
    0x3d0737dcbe956a44U, 0x3f19a386be3ebd98U, 0x3ed73034be0305c7U, 0xbd6f4e983ebe1007U,
    0x3e04d3af3ddb85afU, 0x3ebe6ca93e4b2d7bU, 0x3e38b97abeb071f3U, 0x3e2e630cbe012af6U,
    0x3ec6b2c7be78d857U, 0x3e234b193da8fbd8U, 0x3cf58e673dc45f8cU, 0xbdd35d103e9fea0eU,
    0xbe504be03d9be0ecU, 0xbea2f90ebd972410U, 0xbe50679a3d8a558bU, 0x3e5052543e977880U,
    0xbe26661bbda362d5U, 0x3e823f2d3df6b9dfU, 0x3e6a16713e907eefU, 0x3da77ad2bdaaedf3U,
    0xbe8dec8b3e76c3ffU, 0xbd2c03003da28fccU, 0x3e959b513e1dcd62U, 0x3e9d3e4f3e8ab96dU,
    0x3d3e5676be83f7e7U, 0xbe9276fb3be00af8U, 0x3ee08f76be924753U, 0x3e9ed4743eebbd35U,
    0x3ea422a0bdb13b41U, 0xbe973a0abe88a171U, 0xbd63cd08be6a8f63U, 0x3ecc23853f06703bU,
    0xbd1910e7bda053a4U, 0x3f0680eabe88a66eU, 0xbe5f97d83f02552cU, 0x3f045d16be789550U,
    0xbd81eb163e21fec0U, 0xbef82fdcbf114c4dU, 0x3e6bccfe3ec43523U, 0x3e2c11533dc2a370U,
    0x3de9ed0dbf2bb845U, 0xbe8b8b7d3ec89f56U, 0xbda7f9af3e0c02d6U, 0x3ea60a2fbd6df786U,
    0x3da4f1f5bd30124dU, 0xbe66beabbebbe396U, 0xbe50ca0d3e3ac752U, 0x3e2392a9bc5716deU,
    0xbe824ab33d9a7b39U, 0x3f0b5393bdc0eb37U, 0x3e8af57e3caf345cU, 0xbea74475be249b4dU,
    0x3e202bf83e1d2f1bU, 0x3d7a2ec23e840ffbU, 0xbef421d9be9dc6a8U, 0xbde343483e6b94a3U,
    0xbd23e386be48aaecU, 0xbcf825fe3e97a300U, 0xbc77d86f3e3ee897U, 0xbd597fb8be845efbU,
    0xbeb7781a3ede140dU, 0x3ee1bf7cbd5bfce2U, 0x3ea24101be088537U, 0x3e1eca9e3dc8d721U,
    0x3e81e3cb3d8aeccaU, 0x3c78c981be6adf9dU, 0x3ea2abe13e2ec94aU, 0xbcfce7903ecc6c8dU,
    0x3ea6d4253e91e0bdU, 0xbd9926783a938adaU, 0xbe533580bea2370aU, 0xbde6e3aebe7214c4U,
    0x3e35fd953d9fad42U, 0x3e54e5aabdd2c20bU, 0x3d2ff100bd77f437U, 0xbe0924e9be8f87efU,
    0xbdcc1ec93e1acc10U, 0xbe14d11b3e2ea5eeU, 0xbd56efa43e996202U, 0xbebe1933beaccb35U,
    0x3e808ee23e2f84b1U, 0x3dd40065bd3bd52eU, 0x3e889dcb3e878b5bU, 0x3daa66a6be1e4048U,
    0x3e83c80abe630c08U, 0x3da0b301be1c9b17U, 0xbe92f121bde9ab29U, 0xbebf7d083e7c3d32U,
    0xbe22a4973e53a9ddU, 0xbe369f64be14edffU, 0x3daa2f353e6d04efU, 0xbdf72d6a3e11b3a7U,
    0x3e8ba9ce3e1199ccU, 0xbe770443bda39088U, 0xbe65e47000000000U, 0x3e326014be69345aU,
    0x3e802b43bc84df30U, 0x3d77bf0cbd6c6554U, 0x3e8076fc3e9513f2U, 0x3ea4d89cbe0605d9U,
    0x3e17ff1abe4b67f1U, 0x3db159a03e754dfbU, 0x3e5790983de10eabU, 0xbd73dad63e61bfe1U,
    0xbee8d8debeb8623aU, 0xbec84f433e1b2f54U, 0xbe79f7ff3e378ae6U, 0x3f1cfe44beeb1af9U,
    0x3ddb37f2bd6ee98fU, 0xbd2b0413be6e3fc8U, 0xbd9e12e43e99f691U, 0xbee6c56abe9226bdU,
    0x3e95bf0b3eeca08bU, 0xbef844d53eb4499bU, 0x3ead9c003dc5dee3U, 0x3e0a990f3ec2359bU,
    0xbe6b4fb1bda74614U, 0x3ebc6ce0becd1a77U, 0xbe96f3da3e56e1b3U, 0xbe56ba02bef12740U,
    0xbeb4675a3f0aaa32U, 0xbed60823bed765f9U, 0x3ebfad953e6fad63U, 0xbe000ed73eca2b1cU,
    0x3f35813a3f1c3527U, 0xbeb4ae28beb25afeU, 0xbefd0c693e809179U, 0x3d71abe7bf2907feU,
    0xbd7c9483bee16fe1U, 0x3e465a2abe9c9d46U, 0x3f1b0c443ebf8d61U, 0x3f11f9e0bddf9e1bU,
    0x3f042415be899708U, 0xbd98feb33f079257U, 0x3e8d8a19beaf05eeU, 0xbef573cb3e33b65eU,
    0x3ef09c323e3f4fc0U, 0x3ee8e3773f0630c0U, 0x3ef254fcbecc98acU, 0x3f05ec873eb34cf9U,
    0xbf43f020bebb8cb0U, 0x3e844c333e8467deU, 0x3de60bce3e98740dU, 0xbedfc0d43ee8379dU,
    0xbeebfc04be195da3U, 0x3f0d6ba5be81ee7fU, 0xbf3240e1be8d310aU, 0xbe6ceceb3eb08d39U,
    0x3e26d7953f1e4614U, 0xbec8c3e8be1a1f81U, 0xbef01b0dbe1e5879U, 0x3eed48e03cf4faedU,
    0x3e47cc05bdbbba90U, 0xbe63e573U,
};

ai_handle g_network_weights_table[1 + 2] = {
    AI_HANDLE_PTR(AI_MAGIC_MARKER),
    AI_HANDLE_PTR(s_network_weights_array_u64),
    AI_HANDLE_PTR(AI_MAGIC_MARKER),
};
